<unk>	0.0
▁t	-0.0
▁th	-1.0
▁a	-2.0
in	-3.0
▁the	-4.0
re	-5.0
▁w	-6.0
▁o	-7.0
▁s	-8.0
at	-9.0
ou	-10.0
er	-11.0
nd	-12.0
▁i	-13.0
▁b	-14.0
▁c	-15.0
on	-16.0
▁h	-17.0
ing	-18.0
▁to	-19.0
▁m	-20.0
en	-21.0
▁f	-22.0
▁p	-23.0
an	-24.0
▁d	-25.0
es	-26.0
or	-27.0
ll	-28.0
▁of	-29.0
▁and	-30.0
▁y	-31.0
▁l	-32.0
▁I	-33.0
it	-34.0
▁in	-35.0
is	-36.0
ed	-37.0
▁g	-38.0
▁you	-39.0
ar	-40.0
▁that	-41.0
om	-42.0
as	-43.0
▁n	-44.0
ve	-45.0
us	-46.0
ic	-47.0
ow	-48.0
al	-49.0
▁it	-50.0
▁be	-51.0
▁wh	-52.0
le	-53.0
ion	-54.0
ut	-55.0
ot	-56.0
▁we	-57.0
▁is	-58.0
▁e	-59.0
et	-60.0
ay	-61.0
▁re	-62.0
▁on	-63.0
▁T	-64.0
▁A	-65.0
▁ha	-66.0
ent	-67.0
ke	-68.0
ct	-69.0
▁S	-70.0
ig	-71.0
ver	-72.0
▁Th	-73.0
all	-74.0
id	-75.0
▁for	-76.0
ro	-77.0
▁he	-78.0
se	-79.0
▁this	-80.0
ld	-81.0
ly	-82.0
▁go	-83.0
▁k	-84.0
▁st	-85.0
st	-86.0
ch	-87.0
▁li	-88.0
▁u	-89.0
am	-90.0
ur	-91.0
ce	-92.0
ith	-93.0
im	-94.0
▁so	-95.0
▁have	-96.0
▁do	-97.0
ht	-98.0
th	-99.0
▁an	-100.0
▁with	-101.0
ad	-102.0
▁r	-103.0
ir	-104.0
▁was	-105.0
▁as	-106.0
▁W	-107.0
▁are	-108.0
ust	-109.0
ally	-110.0
▁j	-111.0
▁se	-112.0
ation	-113.0
od	-114.0
ere	-115.0
▁like	-116.0
▁not	-117.0
▁kn	-118.0
ight	-119.0
▁B	-120.0
▁they	-121.0
▁And	-122.0
▁know	-123.0
ome	-124.0
op	-125.0
▁can	-126.0
▁or	-127.0
▁sh	-128.0
▁me	-129.0
ill	-130.0
ant	-131.0
ck	-132.0
▁what	-133.0
▁at	-134.0
▁ab	-135.0
ould	-136.0
ol	-137.0
▁So	-138.0
▁C	-139.0
use	-140.0
ter	-141.0
il	-142.0
▁but	-143.0
▁just	-144.0
▁ne	-145.0
▁de	-146.0
ra	-147.0
ore	-148.0
▁there	-149.0
ul	-150.0
out	-151.0
▁con	-152.0
▁all	-153.0
▁The	-154.0
ers	-155.0
▁H	-156.0
▁fr	-157.0
▁pro	-158.0
ge	-159.0
ea	-160.0
▁Y	-161.0
▁O	-162.0
▁M	-163.0
pp	-164.0
▁com	-165.0
ess	-166.0
▁ch	-167.0
▁al	-168.0
est	-169.0
ate	-170.0
qu	-171.0
▁lo	-172.0
▁ex	-173.0
very	-174.0
▁su	-175.0
ain	-176.0
▁one	-177.0
ca	-178.0
art	-179.0
ist	-180.0
if	-181.0
ive	-182.0
▁if	-183.0
ink	-184.0
nt	-185.0
ab	-186.0
▁about	-187.0
▁going	-188.0
▁v	-189.0
▁wor	-190.0
um	-191.0
ok	-192.0
▁your	-193.0
▁my	-194.0
ind	-195.0
▁get	-196.0
cause	-197.0
▁from	-198.0
▁don	-199.0
ri	-200.0
pe	-201.0
un	-202.0
ity	-203.0
▁up	-204.0
▁P	-205.0
▁out	-206.0
ort	-207.0
▁L	-208.0
ment	-209.0
el	-210.0
▁N	-211.0
▁some	-212.0
ich	-213.0
and	-214.0
▁think	-215.0
em	-216.0
oug	-217.0
▁G	-218.0
os	-219.0
▁D	-220.0
res	-221.0
▁because	-222.0
▁by	-223.0
ake	-224.0
▁int	-225.0
ie	-226.0
▁us	-227.0
▁tr	-228.0
▁then	-229.0
ack	-230.0
▁pl	-231.0
▁here	-232.0
▁pe	-233.0
her	-234.0
▁will	-235.0
▁F	-236.0
▁which	-237.0
ard	-238.0
▁right	-239.0
▁thing	-240.0
▁want	-241.0
ies	-242.0
ople	-243.0
▁It	-244.0
▁them	-245.0
ame	-246.0
▁We	-247.0
our	-248.0
▁say	-249.0
▁R	-250.0
▁people	-251.0
▁see	-252.0
▁who	-253.0
ast	-254.0
ure	-255.0
ect	-256.0
ear	-257.0
▁tim	-258.0
▁E	-259.0
▁You	-260.0
▁would	-261.0
▁when	-262.0
ven	-263.0
▁our	-264.0
ci	-265.0
▁really	-266.0
▁more	-267.0
ound	-268.0
ose	-269.0
ak	-270.0
▁co	-271.0
ide	-272.0
ough	-273.0
▁had	-274.0
so	-275.0
▁qu	-276.0
eah	-277.0
▁were	-278.0
ine	-279.0
▁act	-280.0
ther	-281.0
▁these	-282.0
▁how	-283.0
▁now	-284.0
▁sa	-285.0
ud	-286.0
▁Wh	-287.0
▁man	-288.0
ous	-289.0
one	-290.0
pt	-291.0
ff	-292.0
ong	-293.0
▁has	-294.0
▁any	-295.0
▁very	-296.0
▁But	-297.0
▁look	-298.0
iv	-299.0
itt	-300.0
▁time	-301.0
▁mo	-302.0
▁ar	-303.0
hing	-304.0
▁le	-305.0
▁work	-306.0
▁their	-307.0
are	-308.0
▁his	-309.0
per	-310.0
ions	-311.0
▁im	-312.0
▁ag	-313.0
▁J	-314.0
▁no	-315.0
▁en	-316.0
▁got	-317.0
ag	-318.0
▁sp	-319.0
ans	-320.0
act	-321.0
▁te	-322.0
▁also	-323.0
iz	-324.0
ice	-325.0
▁That	-326.0
▁cl	-327.0
▁been	-328.0
▁way	-329.0
▁fe	-330.0
▁did	-331.0
ple	-332.0
ually	-333.0
▁other	-334.0
▁U	-335.0
ite	-336.0
age	-337.0
omet	-338.0
ber	-339.0
reat	-340.0
ree	-341.0
▁into	-342.0
own	-343.0
▁tw	-344.0
▁part	-345.0
alk	-346.0
▁where	-347.0
▁need	-348.0
▁every	-349.0
pl	-350.0
▁ad	-351.0
ry	-352.0
▁over	-353.0
ble	-354.0
ap	-355.0
ue	-356.0
▁kind	-357.0
▁po	-358.0
▁back	-359.0
▁cont	-360.0
iff	-361.0
▁somet	-362.0
▁pr	-363.0
nder	-364.0
ire	-365.0
▁good	-366.0
▁than	-367.0
ace	-368.0
▁gu	-369.0
ep	-370.0
og	-371.0
ick	-372.0
way	-373.0
▁lot	-374.0
▁un	-375.0
▁things	-376.0
▁In	-377.0
ish	-378.0
kay	-379.0
▁well	-380.0
▁could	-381.0
▁pre	-382.0
▁two	-383.0
irst	-384.0
▁diff	-385.0
ach	-386.0
cc	-387.0
ittle	-388.0
int	-389.0
▁He	-390.0
▁those	-391.0
ence	-392.0
ip	-393.0
ase	-394.0
▁him	-395.0
▁make	-396.0
▁little	-397.0
ical	-398.0
▁gr	-399.0
▁year	-400.0
ass	-401.0
▁thr	-402.0
uch	-403.0
ated	-404.0
▁This	-405.0
▁off	-406.0
▁res	-407.0
ac	-408.0
ance	-409.0
▁actually	-410.0
▁talk	-411.0
ult	-412.0
able	-413.0
orm	-414.0
▁dis	-415.0
▁first	-416.0
ations	-417.0
▁something	-418.0
▁she	-419.0
sel	-420.0
▁let	-421.0
ord	-422.0
▁may	-423.0
ia	-424.0
▁am	-425.0
▁her	-426.0
▁said	-427.0
▁bo	-428.0
be	-429.0
ount	-430.0
▁much	-431.0
▁per	-432.0
▁even	-433.0
▁differe	-434.0
vel	-435.0
ary	-436.0
▁app	-437.0
ving	-438.0
▁comm	-439.0
▁imp	-440.0
ys	-441.0
▁again	-442.0
ress	-443.0
▁yeah	-444.0
▁down	-445.0
ang	-446.0
▁mean	-447.0
na	-448.0
ens	-449.0
▁does	-450.0
▁fo	-451.0
▁comp	-452.0
▁ro	-453.0
▁bl	-454.0
ody	-455.0
▁K	-456.0
▁through	-457.0
▁start	-458.0
uct	-459.0
▁only	-460.0
▁bet	-461.0
▁under	-462.0
▁br	-463.0
▁take	-464.0
ning	-465.0
▁bu	-466.0
▁use	-467.0
▁Ch	-468.0
xt	-469.0
co	-470.0
ory	-471.0
ild	-472.0
▁put	-473.0
▁call	-474.0
▁new	-475.0
other	-476.0
ting	-477.0
▁happ	-478.0
ater	-479.0
▁inc	-480.0
ition	-481.0
▁different	-482.0
▁should	-483.0
ade	-484.0
ign	-485.0
thing	-486.0
▁day	-487.0
fore	-488.0
▁Yeah	-489.0
ark	-490.0
ile	-491.0
ial	-492.0
▁come	-493.0
▁They	-494.0
▁being	-495.0
▁try	-496.0
ious	-497.0
▁sc	-498.0
▁bit	-499.0
▁spe	-500.0
ub	-501.0
fe	-502.0
▁doing	-503.0
▁St	-504.0
vers	-505.0
av	-506.0
ty	-507.0
ian	-508.0
onna	-509.0
red	-510.0
wn	-511.0
▁ke	-512.0
form	-513.0
ors	-514.0
▁fl	-515.0
fter	-516.0
ail	-517.0
ents	-518.0
▁gonna	-519.0
▁point	-520.0
ces	-521.0
▁There	-522.0
self	-523.0
▁many	-524.0
▁If	-525.0
▁same	-526.0
▁sy	-527.0
▁quest	-528.0
▁most	-529.0
▁great	-530.0
▁What	-531.0
▁fu	-532.0
ug	-533.0
▁show	-534.0
we	-535.0
ual	-536.0
ons	-537.0
▁Be	-538.0
ically	-539.0
▁ser	-540.0
▁rem	-541.0
▁ind	-542.0
▁pers	-543.0
▁V	-544.0
he	-545.0
▁str	-546.0
ved	-547.0
▁still	-548.0
ank	-549.0
▁rec	-550.0
▁wr	-551.0
ought	-552.0
day	-553.0
ath	-554.0
▁end	-555.0
▁bas	-556.0
ft	-557.0
erm	-558.0
body	-559.0
ph	-560.0
ject	-561.0
ict	-562.0
▁play	-563.0
▁Is	-564.0
ates	-565.0
▁ph	-566.0
oth	-567.0
▁acc	-568.0
get	-569.0
▁years	-570.0
▁em	-571.0
▁id	-572.0
▁Oh	-573.0
ves	-574.0
ever	-575.0
▁inter	-576.0
▁rel	-577.0
▁before	-578.0
▁feel	-579.0
igh	-580.0
▁three	-581.0
iss	-582.0
▁des	-583.0
ne	-584.0
▁why	-585.0
▁uh	-586.0
▁To	-587.0
▁cons	-588.0
▁hel	-589.0
▁after	-590.0
ower	-591.0
urn	-592.0
▁okay	-593.0
▁long	-594.0
▁bel	-595.0
▁around	-596.0
ful	-597.0
te	-598.0
ise	-599.0
▁ob	-600.0
▁supp	-601.0
ady	-602.0
ange	-603.0
aking	-604.0
▁pos	-605.0
atch	-606.0
▁tra	-607.0
gr	-608.0
▁might	-609.0
ert	-610.0
▁help	-611.0
ost	-612.0
▁too	-613.0
cial	-614.0
▁world	-615.0
▁give	-616.0
ike	-617.0
▁Okay	-618.0
ways	-619.0
▁min	-620.0
ward	-621.0
ily	-622.0
▁gen	-623.0
▁find	-624.0
▁dec	-625.0
ular	-626.0
ob	-627.0
▁tell	-628.0
▁Now	-629.0
▁sm	-630.0
▁cour	-631.0
▁real	-632.0
cess	-633.0
nds	-634.0
▁big	-635.0
▁num	-636.0
ction	-637.0
▁add	-638.0
▁set	-639.0
▁um	-640.0
ood	-641.0
ible	-642.0
▁own	-643.0
▁life	-644.0
ities	-645.0
▁its	-646.0
▁God	-647.0
pect	-648.0
▁didn	-649.0
stem	-650.0
les	-651.0
uc	-652.0
ib	-653.0
ating	-654.0
olog	-655.0
▁person	-656.0
▁inv	-657.0
ably	-658.0
▁sure	-659.0
▁reg	-660.0
lic	-661.0
▁stu	-662.0
▁cr	-663.0
▁ev	-664.0
ments	-665.0
▁another	-666.0
▁la	-667.0
▁last	-668.0
▁sub	-669.0
▁att	-670.0
▁op	-671.0
▁inst	-672.0
▁sl	-673.0
▁happen	-674.0
▁rep	-675.0
▁import	-676.0
ific	-677.0
ix	-678.0
▁made	-679.0
▁ear	-680.0
▁ac	-681.0
▁def	-682.0
ute	-683.0
▁next	-684.0
ative	-685.0
▁form	-686.0
▁guys	-687.0
▁system	-688.0
ew	-689.0
▁able	-690.0
ied	-691.0
▁always	-692.0
ren	-693.0
erest	-694.0
▁As	-695.0
▁mod	-696.0
▁done	-697.0
ings	-698.0
▁love	-699.0
ism	-700.0
▁ask	-701.0
old	-702.0
ered	-703.0
▁trans	-704.0
▁count	-705.0
ility	-706.0
▁high	-707.0
▁fin	-708.0
▁prob	-709.0
▁pol	-710.0
▁exam	-711.0
▁pres	-712.0
▁maybe	-713.0
ell	-714.0
▁stud	-715.0
▁prod	-716.0
▁car	-717.0
ock	-718.0
▁used	-719.0
oy	-720.0
stand	-721.0
▁No	-722.0
▁mon	-723.0
ks	-724.0
▁interest	-725.0
▁ent	-726.0
ited	-727.0
▁sort	-728.0
▁For	-729.0
▁today	-730.0
ics	-731.0
▁vide	-732.0
▁bec	-733.0
▁Well	-734.0
▁Al	-735.0
▁important	-736.0
▁such	-737.0
▁run	-738.0
▁keep	-739.0
▁fact	-740.0
ata	-741.0
ss	-742.0
▁never	-743.0
ween	-744.0
▁stuff	-745.0
ract	-746.0
▁question	-747.0
als	-748.0
▁sim	-749.0
vern	-750.0
ather	-751.0
▁course	-752.0
▁Of	-753.0
oc	-754.0
ness	-755.0
arch	-756.0
ize	-757.0
▁All	-758.0
ense	-759.0
blem	-760.0
▁probably	-761.0
hip	-762.0
▁number	-763.0
ention	-764.0
▁saying	-765.0
▁commun	-766.0
▁An	-767.0
akes	-768.0
▁belie	-769.0
▁between	-770.0
▁better	-771.0
cus	-772.0
▁place	-773.0
▁gener	-774.0
▁ca	-775.0
▁ins	-776.0
▁ass	-777.0
cond	-778.0
cept	-779.0
ull	-780.0
▁understand	-781.0
▁fun	-782.0
▁thought	-783.0
gan	-784.0
iew	-785.0
cy	-786.0
ution	-787.0
ope	-788.0
ason	-789.0
▁problem	-790.0
▁doesn	-791.0
ational	-792.0
▁read	-793.0
▁trying	-794.0
▁sch	-795.0
▁el	-796.0
ah	-797.0
atter	-798.0
▁exper	-799.0
▁four	-800.0
▁ele	-801.0
▁cou	-802.0
ont	-803.0
▁called	-804.0
▁partic	-805.0
▁open	-806.0
▁gl	-807.0
▁everything	-808.0
▁eff	-809.0
▁getting	-810.0
▁ty	-811.0
▁Am	-812.0
▁Because	-813.0
ave	-814.0
▁met	-815.0
▁Like	-816.0
oney	-817.0
▁	-818.0
e	-819.0
t	-820.0
o	-821.0
a	-822.0
n	-823.0
i	-824.0
s	-825.0
h	-826.0
r	-827.0
l	-828.0
d	-829.0
u	-830.0
c	-831.0
y	-832.0
m	-833.0
g	-834.0
w	-835.0
f	-836.0
p	-837.0
,	-838.0
b	-839.0
.	-840.0
k	-841.0
v	-842.0
'	-843.0
I	-844.0
T	-845.0
A	-846.0
S	-847.0
j	-848.0
x	-849.0
W	-850.0
B	-851.0
C	-852.0
?	-853.0
0	-854.0
O	-855.0
-	-856.0
M	-857.0
H	-858.0
Y	-859.0
q	-860.0
1	-861.0
P	-862.0
z	-863.0
L	-864.0
D	-865.0
N	-866.0
G	-867.0
F	-868.0
R	-869.0
E	-870.0
2	-871.0
J	-872.0
U	-873.0
:	-874.0
5	-875.0
9	-876.0
3	-877.0
K	-878.0
4	-879.0
V	-880.0
8	-881.0
6	-882.0
7	-883.0
!	-884.0
%	-885.0
Q	-886.0
$	-887.0
Z	-888.0
X	-889.0
é	-890.0
/	-891.0
í	-892.0
á	-893.0
£	-894.0
ó	-895.0
ā	-896.0
ü	-897.0
ñ	-898.0
ö	-899.0
è	-900.0
ç	-901.0
à	-902.0
¿	-903.0
μ	-904.0
π	-905.0
ä	-906.0
ú	-907.0
θ	-908.0
ã	-909.0
φ	-910.0
ī	-911.0
σ	-912.0
ê	-913.0
ρ	-914.0
â	-915.0
ô	-916.0
^	-917.0
€	-918.0
É	-919.0
ū	-920.0
Δ	-921.0
λ	-922.0
α	-923.0
τ	-924.0
æ	-925.0
а	-926.0
о	-927.0
ν	-928.0
î	-929.0
γ	-930.0
ψ	-931.0
ē	-932.0
т	-933.0
ß	-934.0
ω	-935.0
ï	-936.0
ć	-937.0
č	-938.0
ε	-939.0
е	-940.0
и	-941.0
ò	-942.0
р	-943.0
β	-944.0
ø	-945.0
ł	-946.0
δ	-947.0
η	-948.0
п	-949.0
ë	-950.0
н	-951.0
с	-952.0
š	-953.0
Ü	-954.0
å	-955.0
ń	-956.0
ś	-957.0
я	-958.0
đ	-959.0
л	-960.0
м	-961.0
Ö	-962.0
û	-963.0
ș	-964.0
в	-965.0
Á	-966.0
Ø	-967.0
ù	-968.0
ο	-969.0
ч	-970.0
ь	-971.0
ž	-972.0
Φ	-973.0
у	-974.0
ę	-975.0
ι	-976.0
б	-977.0
г	-978.0
к	-979.0
ő	-980.0
Ś	-981.0
Ω	-982.0
κ	-983.0
υ	-984.0
ì	-985.0
Č	-986.0
έ	-987.0
х	-988.0
ы	-989.0
Å	-990.0
Ç	-991.0
ż	-992.0
ί	-993.0
ζ	-994.0
χ	-995.0
э	-996.0
Æ	-997.0
Í	-998.0
õ	-999.0
ě	-1000.0
ħ	-1001.0
Ł	-1002.0
œ	-1003.0
Ž	-1004.0
ț	-1005.0
Γ	-1006.0
П	-1007.0
д	-1008.0
з	-1009.0
ф	-1010.0
¡	-1011.0
À	-1012.0
Î	-1013.0
Ā	-1014.0
ė	-1015.0
Š	-1016.0
ź	-1017.0
Κ	-1018.0
Ψ	-1019.0
ά	-1020.0
ξ	-1021.0
ό	-1022.0
